#include <cstddef>
namespace rai {
	unsigned char rai_bootstrap_weights[] = {0x00,0x00,0x00,0x00,0x00,0x00,0x00,0x00,0x00,0x00,0x00,0x00,0x00,0xdc,0x8b,0xd3,0xc7,0x98,0xcf,0xf4,0xf1,0x13,0x12,0x04,0xf6,0x5c,0x4d,0x22,0xc3,0xe6,0x31,0x6f,0x26,0xf3,0x80,0xee,0x06,0x16,0xaa,0xdb,0xab,0xea,0x12,0x68,0xfd,0x75,0xfb,0x05,0x18,0xf8,0x81,0x2e,0xb0,0xb6,0x89,0xdf,0xd5,0x34,0x63,0xaa,0x4f,0x98,0xd9,0xd5,0xd9,0x5f,0xee,0xeb,0x8b,0x08,0xda,0x59,0x88,0x21,0xa7,0x21,0x99,0x14,0x1e,0xd7,0x5d,0x58,0x60,0xbc,0xcb,0x0c,0xa4,0xe0,0x41,0xe1,0x38,0x72,0x07,0xf9,0xc9,0x93,0x0b,0x4b,0x57,0xb0,0x3d,0x1f,0xa8,0x0e,0x42,0x48,0x5c,0xe7,0x7f,0xf8,0x6a,0xc8,0xe3,0x82,0xdd,0x09,0xec,0x8c,0xaf,0xc2,0x42,0x7c,0xf8,0x17,0xe9,0xaf,0xe1,0xf3,0x72,0xce,0x81,0x08,0x5a,0xb4,0xfe,0xb1,0xf3,0xde,0x1f,0x25,0xee,0x81,0x8e,0x5d,0x07,0xe7,0xd0,0x14,0xc9,0x10,0x8b,0xee,0x95,0xb8,0xd9,0xa0,0xda,0x61,0xa2,0x9b,0x67,0x55,0x6d,0x31,0xdd,0xfc,0x2a,0x44,0x0b,0xf6,0x14,0x75,0x01,0x44,0x9b,0x4c,0xb9,0x57,0x22,0x78,0xd0,0x34,0xee,0x68,0x6a,0x6b,0xee,0x29,0x85,0x16,0x81,0xdf,0x04,0xf9,0x14,0x16,0xdd,0xda,0xb5,0x02,0xba,0xfa,0xf3,0x99,0x28,0x94,0x11,0x53,0x63,0x23,0xc6,0xbc,0xca,0x82,0xbc,0x8e,0x88,0xaf,0x9f,0xd6,0x5c,0xaf,0xef,0x2e,0xe4,0x19,0x24,0x88,0x1b,0x41,0x1b,0xd1,0x08,0x55,0x16,0xd6,0x42,0x7e,0x9c,0x89,0x04,0x40,0x46,0x03,0x8a,0xd9,0x3e,0x85,0xff,0x46,0xf2,0x09,0x3b,0x5f,0x22,0x00,0xa3,0x0e,0x0a,0x32,0xed,0x41,0xc8,0x60,0x7a,0xa9,0x21,0x28,0x43,0x39,0x2e,0x85,0x3f,0xcb,0xcb,0x4e,0x7c,0xb1,0x94,0xe3,0x5c,0x94,0xf0,0x7f,0x91,0xde,0x59,0xef,0x03,0xb7,0xcb,0x54,0xe9,0x80,0x5c,0x4d,0xb9,0x10,0xb3,0xdf,0x25,0x74,0x28,0xb2,0x52,0x08,0x4c,0xba,0x17,0x27,0xb0,0xd0,0xe2,0x3f,0x7a,0xea,0xb2,0x32,0x50,0x2e,0x4d,0x6b,0x9c,0x9c,0x13,0xf6,0x58,0x5e,0xcd,0xc0,0xd8,0xb5,0x6a,0xa9,0x8f,0xb7,0x03,0x16,0x46,0x81,0x85,0x66,0x08,0xcc,0xfa,0xc3,0x07,0xfd,0x34,0x07,0xb1,0xde,0xee,0x16,0x04,0x66,0xca,0x8a,0x18,0x8e,0xf6,0x83,0xf6,0x1e,0xae,0x6e,0x46,0xc9,0xd5,0x77,0x16,0x44,0xb4,0x7b,0xbd,0x6c,0x90,0x4c,0x93,0x6d,0xc8,0xe0,0xd0,0xca,0x03,0x02,0x95,0x5c,0x61,0x00,0x76,0xdf,0x80,0xc8,0xdf,0x1f,0x71,0xff,0xff,0xfd,0x23,0x99,0xa0,0x83,0xc6,0x00,0xaa,0x05,0x72,0xf5,0xe3,0x62,0x47,0xd9,0x78,0xfc,0xfc,0x84,0x04,0x05,0xf8,0xd4,0xb6,0xd3,0x31,0x61,0xc0,0x06,0x6a,0x55,0xf4,0x31,0x02,0x82,0xcb,0xd2,0x94,0xc5,0x5d,0x9f,0x7c,0x8d,0xa2,0xc4,0x93,0x99,0x74,0x09,0x5c,0x2f,0xbb,0x14,0x8e,0x00,0x6a,0x8e,0x8b,0xa7,0xa7,0x5d,0xd8,0x6c,0x9f,0xe0,0x0c,0x83,0xf5,0xff,0xdb,0xfd,0x76,0xea,0xa0,0x95,0x31,0x07,0x14,0x36,0xb6,0xaf,0x02,0x76,0x91,0x7e,0xa7,0x56,0x4a,0xf7,0x8d,0x40,0x87,0x2a,0x42,0x5a,0x22,0xf8,0xbd,0x62,0x67,0xd6,0xec,0xd8,0x03,0x83,0x27,0xd2,0xbc,0xc0,0x85,0x0b,0xdf,0x8f,0x56,0xec,0x04,0x14,0x91,0x22,0x07,0xe8,0x1b,0xcf,0x90,0xdf,0xac,0x8a,0x4a,0xaa,0x02,0x44,0xde,0x1f,0x3f,0x76,0xc7,0xd6,0xa9,0x77,0xb6,0xed,0x74,0x98,0xe6,0x2a,0x27,0x08,0x85,0x12,0x1f,0xfc,0xc0,0xe4,0xdf,0xda,0x2f,0x29,0xc4,0x52,0x71,0x3f,0xa1,0x6b,0xf0,0x06,0xfb,0xcb,0x9b,0x89,0x0c,0x33,0x3e,0x91,0x48,0xd0,0xc8,0xbe,0x02,0x2b,0x24,0x26,0x4b,0x61,0x15,0x64,0x09,0x9d,0xad,0x3f,0xdb,0x84,0x26,0x7d,0x22,0x98,0xfa,0xb7,0xc6,0x10,0x58,0xe7,0x7e,0xa5,0x54,0xcb,0x93,0xed,0xee,0xda,0x06,0x92,0xcb,0xfc,0xc5,0x40,0xab,0x21,0x3b,0x28,0x36,0xb2,0x90,0x29,0xe2,0x3a,0x01,0xb6,0xab,0x11,0x32,0x51,0x18,0xbe,0x81,0x95,0xc0,0xfa,0x97,0x26,0xc4,0x0f,0xae,0x7a,0xc6,0x39,0x90,0xda,0xaa,0xf2,0xa6,0x9b,0xf1,0x1c,0x91,0x3b,0x92,0x88,0x44,0xbf,0x50,0x12,0x35,0x54,0x56,0xf2,0xf1,0x64,0x16,0x64,0x64,0x02,0x4b,0x29,0x01,0x91,0x91,0xac,0x64,0xe0,0xae,0x15,0x9a,0x17,0x08,0x7d,0x04,0xd6,0xcc,0x15,0x51,0x14,0xaa,0xd8,0x6a,0x39,0x08,0x97,0xd2,0xa9,0x1b,0x33,0xb9,0x31,0xb3,0xa5,0x9a,0x7d,0xf9,0xe6,0x3e,0xb3,0x69,0x4f,0x94,0x30,0x12,0x2f,0x56,0x22,0xae,0x50,0x01,0x80,0x31,0xad,0x98,0x86,0xb6,0xda,0x63,0x86,0x6e,0x6b,0xb2,0x16,0x7e,0x4c,0x3f,0xe8,0x0b,0x4b,0xc8,0x42,0xe8,0x2c,0x1c,0x18,0xab,0xfe,0xec,0x47,0xea,0x98,0x9e,0x63,0x95,0x3b,0xc8,0x2a,0xc4,0x11,0xf3,0x04,0xd1,0x38,0x33,0xd5,0x2a,0x56,0x01,0x7a,0x8a,0x77,0x27,0x13,0x7f,0x17,0x5b,0x78,0xda,0xee,0x15,0x44,0x52,0xad,0xe3,0x15,0xb4,0x61,0x76,0xf6,0xd3,0xc6,0x25,0x5a,0xb2,0x22,0xbe,0xa7,0x30,0x5b,0x6c,0xd8,0x48,0xd3,0xb9,0xf0,0xa5,0x9f,0x51,0x33,0x2d,0x5d,0x70,0x62,0x98,0x68,0x01,0x6b,0xcb,0x09,0x68,0xe2,0xb5,0xa5,0xf4,0x85,0xbf,0x2a,0xad,0x25,0x06,0x8d,0x50,0x0f,0xdc,0xbd,0x7c,0x31,0x64,0xf6,0xd4,0xf0,0x75,0xda,0x9a,0xea,0xd6,0x01,0x34,0x51,0x0c,0xcf,0xa0,0xa1,0x0d,0xe6,0x92,0x60,0x07,0xed,0x4f,0xbc,0x96,0xf0,0x00,0xe5,0xe8,0x70,0x63,0x5f,0x4a,0x7d,0x18,0xbe,0xb0,0xdb,0x57,0x80,0x00,0x00,0x39,0x1e,0xcb,0x3a,0x6f,0x7a,0x6b,0x1b,0x1a,0x63,0x3e,0x37,0xee,0x8d,0xd4,0xc7,0x44,0x0d,0xfe,0x20,0xab,0x71,0xc6,0x3f,0xe1,0x2d,0xa7,0xea,0x49,0xf7,0xb4,0x20,0x00,0xd4,0xaf,0xb0,0x35,0xa5,0x93,0xff,0xbb,0x7c,0xa5,0x7b,0xe1,0x9c,0xdb,0xd0,0x6a,0x0e,0x06,0x21,0x52,0xc3,0x32,0x64,0x6e,0xef,0x11,0x16,0x28,0xf1,0x09,0xa0,0x23,0x69,0xe6,0xce,0xc5,0x1f,0x5d,0xef,0x7d,0xe9,0xf3,0xf6,0xc4,0x60,0x00,0xd1,0x00,0xc3,0xd9,0xcb,0x72,0x42,0xa9,0x8c,0xbf,0x30,0x75,0xc7,0xba,0xd0,0xe8,0xd0,0x9b,0xf6,0x9e,0x62,0xc3,0x2d,0x84,0xd3,0xa4,0x8a,0x1b,0xcd,0x0e,0x8c,0x46,0x04,0x02,0x10,0xaf,0x2f,0xd3,0xbe,0x43,0xc9,0xfb,0xea,0xea,0x93,0x3a,0x0a,0x31,0x47,0x00,0xba,0x4b,0xcb,0xe4,0x7d,0xa0,0xe6,0x1c,0x5e,0x19,0xe1,0x74,0x00,0x00,0x00,0x8e,0x9b,0x2b,0xfd,0x46,0xfd,0x8a,0x8e,0x91,0xbc,0xca,0x44,0xf2,0x4d,0x67,0x35,0x90,0x6e,0x55,0x7f,0x89,0xf3,0x76,0x91,0x48,0x00,0x79,0x33,0x21,0x55,0x3b,0x3f,0x00,0xac,0x6f,0xb8,0x08,0x84,0x7f,0xc6,0x70,0x1e,0x81,0x03,0x9f,0x00,0x00,0x00,0xe2,0xd0,0xea,0x3b,0x37,0x2f,0x99,0x2d,0x24,0x5c,0xf4,0x95,0xe5,0x8c,0xb3,0x25,0x8a,0x89,0xd9,0x01,0xd1,0x8d,0x25,0xe1,0xca,0xc9,0xde,0x56,0x7c,0x7d,0xb7,0xda,0x00,0xa3,0xef,0xb4,0x69,0x2a,0xba,0x2e,0xe0,0x07,0xf3,0x86,0xb4,0x22,0x83,0x22,0x74,0xa9,0x87,0xc8,0x75,0x32,0x67,0x1d,0x6a,0x57,0x76,0x58,0xe1,0x25,0xf7,0xb7,0xdc,0xb8,0xba,0x35,0xee,0xdc,0x17,0xc0,0x95,0xfe,0x49,0x28,0x97,0x23,0xca,0xdd,0x00,0x99,0xc8,0x3a,0x21,0x7b,0x11,0x2b,0x3d,0x68,0x7d,0xb2,0xd5,0xcc,0x61,0xaa,0xe8,0x92,0x08,0xdd,0x03,0x8f,0xbb,0x26,0x99,0x87,0x68,0x96,0x21,0xd5,0x22,0x92,0xae,0x9c,0x35,0x94,0x1a,0x74,0x84,0x75,0x6e,0xcc,0xed,0x92,0xa6,0x50,0x93,0xba,0x00,0x80,0xc7,0x60,0x03,0xfe,0x05,0xc0,0x54,0x45,0x84,0x21,0x17,0x3c,0x79,0xac,0xb1,0xad,0x06,0x2b,0x2c,0x58,0x58,0xf6,0x2b,0x4e,0xda,0x2b,0x7f,0xe1,0x1e,0xe8,0xf5,0x47,0x40,0x02,0xf7,0x54,0x0b,0x11,0x75,0x23,0xaa,0x64,0xec,0x4f,0x11,0xb2,0x00,0x6b,0xb1,0xc0,0x80,0x4f,0xf4,0xf3,0x9f,0x78,0x2e,0x7d,0xa5,0x0a,0x1f,0x00,0xf8,0xa5,0x67,0xaa,0x8c,0x6f,0x8d,0x27,0x49,0xf8,0x44,0x8a,0xa0,0x73,0x0e,0xc1,0x35,0xc8,0x41,0xeb,0xe9,0x7c,0xa8,0x16,0x65,0xb4,0x22,0xf4,0x97,0x4b,0xd0,0xe9,0x00,0x69,0xaf,0xbd,0x29,0x3a,0xab,0xb3,0xe2,0x95,0x21,0x39,0xb5,0x08,0x10,0x00,0xbf,0x16,0xb7,0x43,0x96,0xf6,0xb0,0xf2,0xa3,0x33,0xc1,0x17,0xce,0x03,0x55,0xb1,0x4e,0x46,0x15,0xde,0xf5,0xf9,0x98,0x81,0x93,0xd9,0x39,0x28,0xfd,0x24,0x4d,0x3d,0x00,0x67,0xf9,0x83,0x89,0x7b,0xef,0xeb,0xe1,0xe0,0x66,0xb4,0xef,0xdd,0x0e,0x7f,0x12,0x43,0xb4,0x27,0x5d,0x7c,0xff,0x63,0xe3,0x22,0x9c,0x7c,0x40,0xae,0xae,0x8c,0x53,0xd6,0xf3,0x23,0x3d,0x43,0x9a,0xf3,0x17,0x78,0x65,0x75,0x1e,0x98,0x85,0xf1,0x00,0x67,0xd9,0x39,0x40,0xe4,0x6a,0x27,0x56,0x55,0x0d,0x90,0x3f,0xc5,0x27,0x72,0x95,0x7b,0x64,0x93,0x82,0xc8,0xb6,0x27,0x48,0x8a,0x62,0x47,0xfc,0xad,0x12,0x9d,0x96,0x84,0xd5,0xf1,0x05,0xa9,0xe9,0x35,0x1d,0x6a,0xf0,0x0a,0xac,0xa4,0xf9,0x39,0x00,0x67,0x2b,0x45,0x5e,0x51,0x2e,0x6b,0x97,0xce,0x5f,0xcc,0xbc,0x80,0x00,0x00,0x72,0xce,0xac,0x55,0xdb,0xb3,0x3a,0x33,0xb9,0xe6,0xe5,0xdc,0x48,0x28,0xec,0x7c,0xe5,0x8f,0xa0,0xa4,0x99,0x2d,0xa9,0x0d,0xcb,0x81,0xcd,0x06,0x39,0xea,0x67,0xc0,0x00,0x62,0x2c,0xa3,0xca,0xa3,0x4d,0x3f,0xf4,0xf5,0x01,0x5f,0xd9,0xc6,0xa6,0xd8,0x6d,0xba,0xb1,0x72,0x72,0x59,0xdc,0xbf,0x4e,0xa9,0xf1,0xaf,0x34,0x16,0x3e,0x7a,0xa7,0x0f,0x73,0x15,0xcb,0x5b,0xe3,0x51,0xb8,0xa3,0xe1,0xe1,0x21,0xd3,0xd8,0xd8,0x00,0x60,0xe5,0x03,0x2e,0xcc,0x32,0xf8,0x2e,0x0b,0xc9,0xc0,0x02,0xf5,0x7a,0x00,0x22,0x88,0x14,0x21,0xf9,0xf5,0x2a,0xac,0x80,0x15,0xa9,0xa4,0x5e,0xe3,0x3e,0x08,0x92,0xfd,0x23,0x5a,0x74,0x10,0x1e,0xaa,0x61,0xa3,0xf0,0x61,0x51,0x7c,0xe4,0xf7,0x00,0x44,0xee,0x75,0xaf,0x41,0xc6,0xef,0x90,0xaf,0xb3,0x24,0x03,0x08,0x00,0x00,0x89,0xf1,0x21,0x43,0xde,0xaa,0x4f,0x04,0xe7,0xa7,0xb6,0x78,0xb7,0x18,0xbc,0x9f,0x89,0xe9,0x00,0x52,0xee,0x0c,0x0f,0xe0,0x40,0x5e,0x14,0x87,0x75,0x4c,0x53,0x24,0x00,0x40,0xac,0x31,0xcb,0x72,0x27,0x38,0x2a,0x09,0x10,0x9f,0xd9,0x00,0x00,0x00,0xcf,0x2a,0x09,0x9b,0xea,0x10,0xb6,0x74,0x2a,0x02,0x2e,0x23,0x31,0x2c,0xbc,0x29,0x88,0x7e,0xa8,0x51,0xdd,0xd4,0xe9,0x5b,0xe0,0x1f,0x99,0x54,0x3b,0x85,0x19,0x69,0x00,0x3c,0x58,0xa7,0xd7,0x88,0xb4,0x6b,0xe7,0x32,0xb9,0x71,0x11,0x0b,0x60,0x65,0x26,0x23,0x53,0x4e,0xf9,0x3a,0x4a,0xcd,0xa7,0x40,0x0d,0x68,0xf1,0x95,0xea,0x05,0xfe,0x42,0xa1,0xb6,0xa5,0x28,0x16,0x2f,0x34,0xd2,0x53,0x4a,0xed,0x15,0xce,0xa7,0x00,0x39,0x40,0x07,0xd9,0x2a,0xb9,0xd4,0xb3,0xe6,0xd2,0x7b,0x4e,0x34,0x7b,0x04,0x51,0x14,0x67,0x50,0xb8,0x9f,0x48,0x93,0x6a,0x28,0xa0,0xe3,0x36,0x74,0x6a,0xa3,0x3b,0xae,0x60,0x7d,0x34,0xdb,0xc0,0x9f,0xc9,0x4d,0xe4,0x5e,0xba,0xdd,0xba,0x73,0x00,0x36,0x76,0x6e,0x7e,0x10,0x4c,0x63,0xe8,0xbb,0xc7,0x37,0x57,0xcc,0x86,0x4c,0x36,0x9d,0x19,0xd3,0x7b,0x74,0x00,0xc8,0x3d,0x42,0xc0,0x6f,0x4a,0x03,0x5d,0x0e,0x95,0x17,0xad,0xe3,0x94,0x1f,0x4c,0xac,0x3e,0x6a,0x1b,0x98,0x7d,0xe4,0x36,0xdc,0x00,0x34,0x00,0x4a,0x50,0x07,0x3f,0x89,0xf4,0x17,0xdc,0x24,0x41,0x5a,0x87,0x2e,0x6b,0x6a,0x08,0x0a,0x77,0x70,0x37,0xc5,0x6b,0x98,0xcd,0x45,0x03,0x6b,0x88,0x02,0x23,0xe9,0xbe,0x05,0x91,0x6d,0xd3,0xf6,0x97,0x60,0xda,0x8c,0xa4,0xe6,0x89,0x4a,0x00,0x33,0xce,0x35,0x2c,0x6a,0x8b,0x3e,0x67,0x29,0x3f,0x92,0x4f,0x40,0x00,0x00,0x52,0x14,0x8a,0x0b,0x87,0x84,0xac,0x7b,0x6c,0x7d,0xea,0x55,0xc0,0xe1,0xd9,0xf7,0xce,0x34,0xa6,0xc3,0x36,0x9f,0x50,0xbf,0xaf,0x00,0x43,0x82,0x54,0xf3,0x49,0xa3,0x00,0x33,0x76,0xa4,0x9f,0xaa,0x12,0x46,0x3e,0xdd,0xdb,0x0c,0xb5,0x7e,0x4a,0x56,0x9c,0xa5,0x25,0xfe,0x7e,0x53,0x41,0x5f,0x3d,0xb8,0x78,0x4c,0xc5,0xcc,0xd0,0x3a,0xfb,0x8f,0xa5,0xf7,0x39,0x9b,0x3d,0x04,0x47,0x4d,0xe8,0xa3,0xbb,0x87,0x80,0x68,0x00,0x32,0xee,0x1e,0x03,0x6c,0x71,0x4e,0x7a,0xb3,0x12,0x6d,0x89,0x00,0x00,0x00,0x13,0x60,0xde,0xdb,0xea,0xc1,0xc6,0x29,0x4b,0xe2,0x60,0xd0,0xbc,0x75,0x8e,0x1b,0x2e,0x34,0xd1,0x7c,0x4c,0x24,0xff,0xd5,0x33,0x8e,0x33,0x4a,0xcf,0x03,0xa2,0x23,0x00,0x30,0xc1,0xad,0xeb,0x59,0x49,0x2b,0x79,0x54,0x5e,0x69,0xaf,0x18,0xa3,0x9a,0x43,0x2e,0xde,0x67,0x46,0x83,0xac,0x10,0xe1,0xe8,0xe9,0xbd,0xe0,0xaf,0x04,0x40,0x24,0xff,0x57,0x0d,0x6f,0x65,0x75,0xa9,0x00,0x6b,0x1a,0x88,0xeb,0x1f,0x6e,0x35,0x00,0x27,0x9e,0x0c,0xb8,0x68,0xca,0x28,0x65,0x87,0x29,0x5d,0x13,0x90,0x00,0x00,0x47,0x79,0xd0,0x3e,0xbc,0xd2,0x4c,0x30,0xc9,0x3d,0x8e,0xd3,0x62,0xc1,0x75,0xcb,0xf2,0x22,0x16,0xf0,0xac,0x01,0x84,0x2f,0x80,0xe6,0xa4,0x26,0x70,0x6b,0x25,0x54,0x00,0x25,0x26,0x24,0x03,0x55,0x14,0x50,0x87,0x13,0x76,0x85,0xc8,0xa9,0x04,0xf4,0x09,0xfc,0xe0,0x1d,0x81,0x2c,0x64,0x4a,0x07,0x33,0xd4,0x5c,0xdc,0xae,0x41,0x19,0xef,0xad,0x36,0x35,0x22,0x75,0x6e,0x55,0xec,0x0a,0xc1,0x82,0x91,0x1f,0x1d,0x25,0x00,0x23,0x76,0xfa,0xdc,0xf2,0xaa,0x2a,0x62,0x3e,0x05,0x40,0x33,0x59,0xfa,0x68,0x43,0x7f,0x01,0xa8,0x27,0x0b,0x8d,0xb1,0xdc,0xd2,0xd8,0x19,0x35,0xe5,0xe7,0x77,0x85,0xe7,0x4f,0x76,0xc6,0xe4,0x41,0xd1,0x72,0x1b,0x7e,0xc2,0xe9,0x48,0x51,0xcb,0x00,0x23,0x6b,0xdf,0x5f,0xda,0x48,0x2c,0x6e,0x2d,0x29,0xe1,0x67,0x28,0x00,0x00,0x8e,0x2b,0x9b,0x15,0xbe,0xcf,0xa9,0xd8,0x03,0xc8,0xa2,0xd6,0xb3,0xf1,0x98,0xdd,0x3b,0xa7,0x8f,0x0c,0xc7,0x69,0xa4,0x2e,0xc7,0x6a,0xa3,0x73,0x41,0x62,0x16,0x05,0x00,0x23,0x0d,0xf4,0x14,0xf4,0xbb,0x63,0xc9,0x0b,0xfd,0x40,0xef,0xb9,0x0d,0xec,0x9c,0x99,0x53,0xc4,0x6c,0x86,0x33,0xfd,0xc0,0x99,0x04,0x16,0xef,0x6d,0xf2,0x0b,0x14,0x2c,0x6b,0x10,0x99,0x93,0x88,0xb6,0xcf,0x5a,0x49,0x3d,0x8f,0x3f,0xe3,0xd3,0x00,0x22,0xf7,0x93,0x1a,0x2f,0xe5,0x01,0x44,0x7f,0x0c,0x24,0xed,0xc0,0xab,0x8e,0x7e,0xa3,0x14,0x10,0x00,0x90,0x30,0x92,0xc5,0x44,0x9e,0x12,0x44,0xf7,0xd0,0xb6,0x99,0xa6,0x0b,0x1d,0xe3,0xf9,0x10,0xfa,0xf5,0xa0,0xa6,0xa9,0xed,0x0a,0xf1,0x02,0x00,0x22,0xbd,0xa9,0x36,0x96,0x7f,0xd9,0x4b,0x1a,0xd1,0x28,0xa9,0xe9,0x74,0x42,0x85,0x0b,0x1a,0x2d,0x62,0xc5,0x95,0x24,0x5a,0xc3,0xef,0x0c,0x27,0xf3,0x13,0x79,0xc5,0x95,0x34,0x45,0x03,0xf8,0xc0,0xfc,0xe2,0x9e,0x5a,0x6f,0xe4,0x3a,0xed,0xf3,0x00,0x22,0xa4,0x2e,0x40,0xae,0x7b,0xb5,0x04,0x75,0x67,0xfc,0x5d,0x47,0x44,0xbd,0x1b,0x2f,0x4c,0x31,0xaf,0xbe,0x72,0x69,0x40,0x42,0x3c,0x27,0xa5,0x79,0x13,0xa8,0xff,0xc5,0xb6,0xd6,0x38,0xa3,0x4c,0x93,0xea,0xd5,0x37,0xe3,0x41,0x0d,0x87,0x38,0x00,0x22,0x1f,0x89,0x00,0xba,0xa4,0x85,0x8f,0x29,0x49,0xba,0x59,0x4b,0x46,0x00,0xd6,0x67,0x99,0x06,0xf4,0x91,0x41,0xea,0x2f,0x27,0xde,0xd5,0x90,0x8d,0xcb,0x89,0x6e,0xec,0x17,0x4e,0xe8,0xcd,0x83,0xe5,0x44,0xe5,0x26,0xb3,0x4e,0x72,0xc3,0x64,0x00,0x21,0x7c,0x67,0x5a,0xf7,0x68,0xbd,0x8b,0x44,0xe9,0xee,0x61,0x57,0x70,0x77,0x5d,0xd2,0x5a,0x16,0xa4,0xf2,0x84,0x1e,0x6c,0x71,0xbb,0x00,0x10,0x9b,0xb5,0x1c,0xfa,0x98,0xf5,0x42,0x3b,0xa7,0xf1,0xab,0xc3,0xa5,0xc8,0x44,0xc9,0x81,0xc3,0xae,0x00,0x21,0x74,0xe1,0x63,0x66,0x89,0x41,0x11,0x0a,0x9e,0x2b,0x5f,0xa3,0xe2,0x74,0x40,0xfb,0x73,0x80,0x25,0x0f,0x36,0x79,0x0b,0xf1,0x67,0x47,0xec,0x8d,0xd4,0x6b,0xe3,0x3f,0x69,0xaa,0xb6,0xf6,0x4a,0x1c,0x88,0x3d,0x5a,0x71,0x28,0xea,0xb8,0x0d,0x00,0x21,0x36,0xb3,0x05,0x11,0xf6,0x09,0xd9,0x44,0x08,0x54,0x45,0x3f,0xe2,0xa3,0xca,0xeb,0x85,0xe7,0x78,0x56,0x38,0x02,0x2f,0x78,0x8c,0x08,0xb9,0x93,0xff,0x8e,0x3a,0xe5,0x25,0x37,0xa4,0x26,0xbf,0x1a,0x1b,0x5a,0x8e,0xa9,0xb6,0xf7,0xfe,0x4b,0x00,0x21,0x09,0x5c,0x19,0x4a,0x44,0x8b,0xe1,0xd4,0x57,0x6a,0xb8,0x52,0x04,0x57,0x45,0x97,0xaf,0x5c,0x55,0x5a,0xa3,0xeb,0xbd,0xd7,0xab,0x9f,0xcd,0x16,0xcd,0xde,0xc4,0xf7,0xb0,0x79,0x90,0x32,0x36,0x9b,0xb3,0xcf,0x32,0x8a,0xdb,0x52,0xc2,0xe7,0x00,0x21,0x02,0xb0,0x1b,0xa3,0x83,0x34,0xd7,0x83,0xf1,0x95,0x8a,0xa8,0x00,0x00,0x11,0x62,0x1d,0x78,0x1d,0x66,0x20,0xf0,0x7e,0x7a,0x0b,0x28,0xd7,0x3f,0xd7,0x44,0x97,0x86,0xd8,0x07,0x3b,0xa9,0xe2,0x71,0x10,0xa4,0x21,0xbe,0x06,0x64,0xfd,0x4f,0x00,0x20,0xcb,0xe4,0xf3,0x59,0x10,0xe7,0xde,0x7a,0xe2,0x1f,0xd2,0xa8,0xd2,0x45,0xa9,0x16,0xc4,0x94,0x32,0x31,0x39,0x42,0x25,0x41,0x44,0x54,0x2b,0x8f,0x63,0x3c,0x23,0x34,0xfc,0xa6,0xc5,0x5e,0xfc,0xb0,0xde,0x02,0x88,0x81,0x2d,0x84,0xfa,0x46,0x00,0x20,0xc7,0x8b,0xcc,0xf4,0x75,0xc1,0xb3,0x75,0x8f,0x09,0xf6,0xa5,0xa8,0x66,0xa2,0x4c,0x57,0x42,0x8b,0x59,0xa9,0xd3,0x49,0xdc,0x7d,0x21,0xbe,0xce,0xa0,0x3e,0x13,0xff,0xd8,0x22,0x6d,0x11,0x6e,0x81,0x21,0xf4,0x2e,0x96,0x0f,0x0d,0x86,0x7c,0x00,0x1f,0x7b,0x64,0xfb,0x09,0xc2,0xf4,0x8e,0x6c,0xa7,0x56,0xdd,0xd3,0xc5,0xc0,0x23,0x28,0xd9,0x1d,0x83,0x37,0x43,0xf4,0xbd,0x4b,0x49,0x1b,0x56,0xb1,0x70,0x70,0x25,0xca,0xd1,0x95,0xfa,0x7b,0x83,0xb5,0xda,0xea,0x13,0x24,0xbb,0x54,0x07,0x0e,0x00,0x1e,0xc6,0xe6,0x0d,0x98,0x11,0x4c,0x3f,0x36,0xb3,0xee,0xc4,0x84,0x5b,0x49,0x4d,0x1a,0x65,0x49,0xa2,0x16,0xe7,0x25,0x76,0x70,0x01,0x49,0x43,0x95,0x3c,0x27,0xa2,0x0d,0x77,0xd6,0x51,0x44,0x31,0x43,0xc7,0xf8,0xbf,0x34,0x01,0xec,0x98,0xf8,0x00,0x1e,0x3a,0x52,0x07,0x85,0x1e,0xea,0x7f,0xc9,0x82,0xde,0xff,0x37,0x70,0x00,0x2f,0x13,0x78,0xea,0xda,0xcd,0x18,0x68,0xe4,0x92,0xc7,0x62,0xfe,0x51,0x86,0x43,0x3f,0xac,0x7e,0x6a,0xf8,0x38,0x7e,0x71,0xe8,0x5b,0x43,0x8c,0x96,0xae,0x53,0xae,0x00,0x1e,0x23,0x3c,0x62,0x94,0x31,0xa3,0x21,0x05,0x8b,0x97,0x6d,0x07,0x1a,0x00,0xd9,0xd3,0x98,0xa6,0x9e,0xdc,0xf8,0x42,0xbd,0xc6,0x88,0xc6,0xa7,0x7a,0xca,0xf5,0x29,0x71,0x11,0x4d,0x38,0x50,0x87,0x6c,0x43,0xfe,0xcd,0xf4,0xb1,0x2a,0x9e,0x72,0x00,0x1d,0x11,0x03,0x6e,0x64,0x29,0xa7,0xf4,0xd1,0x20,0xcd,0x0a,0x80,0x00,0x00,0xe0,0x96,0x55,0xb3,0x01,0x9e,0xa5,0x95,0xc3,0xd3,0x0c,0xb9,0x51,0xba,0x7f,0x21,0xd1,0xd5,0x38,0x98,0x3f,0x1a,0x6c,0x73,0x9e,0x66,0x4e,0x55,0x81,0xb3,0xb2,0xb9,0x00,0x1c,0xa9,0x75,0x30,0xc5,0xab,0x88,0x95,0xfd,0xea,0xd5,0x72,0xd8,0x00,0x00,0x0f,0x89,0x3c,0x5a,0xf2,0x0e,0x81,0x41,0x55,0x36,0x28,0xb2,0x6d,0x0f,0x4c,0x80,0x04,0x9f,0xbe,0x7b,0x96,0xc0,0x84,0x08,0xe4,0x52,0x97,0x36,0x7b,0xf6,0xa5,0x71,0x00,0x1c,0x69,0xbe,0x08,0xe0,0x98,0xff,0x69,0x8c,0xf1,0x6c,0x3c,0x7a,0xea,0x00,0x06,0xe1,0x6c,0xde,0x57,0x77,0xc1,0x40,0x6d,0x58,0x90,0x26,0x11,0x1b,0xfe,0x26,0x2d,0xa5,0xcd,0x64,0xd9,0x50,0xf4,0xf2,0xa4,0x89,0x42,0x5b,0xf4,0xf1,0xbe,0x1b,0x00,0x1b,0x8b,0xcb,0x7c,0xe8,0xb8,0x30,0x21,0x7a,0xf5,0x67,0xeb,0x89,0xf8,0xf0,0x27,0xba,0x45,0xea,0x9d,0xf9,0xb1,0xc8,0xc7,0xaf,0xce,0xe1,0x33,0x46,0x6a,0x3c,0x27,0xba,0xb4,0xdf,0x57,0x88,0x7d,0x98,0x3d,0x5f,0xcf,0xff,0xd0,0x16,0x85,0x8c,0x00,0x19,0x84,0xf3,0x62,0xc7,0x5e,0xa9,0xbf,0x71,0xa1,0xdb,0x20,0xf0,0x00,0x00,0x69,0xf0,0xa3,0xb3,0x69,0xc2,0xd6,0x6d,0x1c,0xac,0x6a,0x40,0xab,0x56,0x1d,0xf1,0xba,0x6b,0x69,0xb1,0x5f,0x67,0xec,0x91,0xba,0x9f,0xf2,0x86,0xd9,0x62,0x42,0x54,0x00,0x18,0x1c,0xf4,0xfb,0xa5,0xa6,0xa1,0x4c,0xe3,0xad,0xfc,0xe8,0x22,0xe7,0xee,0x56,0x84,0x19,0x4d,0x26,0xb0,0x9a,0x3c,0xbb,0xad,0xb1,0x5e,0xf1,0x71,0x68,0x01,0x80,0x3d,0x15,0xa7,0x78,0x28,0x7b,0x53,0xc8,0x4f,0x6f,0x3d,0xc5,0xe1,0x06,0x64,0x00,0x13,0x6c,0x79,0x80,0xa7,0xe4,0x3b,0xa2,0xf9,0x37,0xe2,0xdd,0xc0,0x00,0x00,0x73,0x1f,0xbb,0x9f,0x5e,0x87,0x34,0x2b,0xa9,0x0b,0x44,0xf8,0x8d,0xd1,0x64,0xdf,0xd2,0x90,0x30,0x71,0x7d,0xb6,0x82,0xf5,0x84,0x79,0x22,0xc7,0x32,0x7f,0x0c,0xe8,0x00,0x13,0x59,0x6c,0x8e,0x71,0x0f,0x31,0xe4,0xce,0x73,0xff,0x69,0x80,0x00,0x00,0x50,0xfd,0xc9,0xc8,0xb1,0x5e,0x0d,0x41,0xc9,0x75,0x89,0xeb,0x42,0x1a,0x29,0xea,0x44,0x4d,0xa4,0x4a,0x2d,0x5a,0xe8,0xd9,0x5f,0x33,0xfb,0x77,0x98,0xbb,0x59,0x52,0x00,0x13,0x42,0x61,0x72,0xc8,0xf5,0x06,0x63,0x25,0x29,0xc3,0x42,0x00,0x00,0x00,0x26,0x40,0xe1,0xa9,0x78,0xc8,0x17,0xe4,0x4f,0x9c,0x35,0x55,0xef,0x00,0x05,0x91,0x39,0x84,0x27,0x39,0x31,0x5e,0x23,0x03,0x32,0xf1,0x55,0x09,0x9d,0x9d,0x50,0x76,0x00,0x12,0xf1,0x29,0x5d,0x15,0x84,0xb0,0x94,0x2b,0x6a,0x2a,0xaa,0x40,0x00,0x00,0xe0,0x75,0xab,0x29,0xd9,0x93,0x02,0x26,0x94,0x96,0xda,0x02,0xc2,0xf8,0x43,0xb3,0x7b,0x3e,0xc1,0xab,0xc3,0xf1,0xb4,0xab,0x50,0xa0,0x49,0x54,0x9e,0x64,0x67,0xd8,0x00,0x11,0x5b,0x11,0x28,0x27,0xcf,0x92,0x8a,0xd7,0x65,0xb4,0x68,0x53,0x30,0x00,0x86,0x34,0x70,0xac,0xa9,0x0c,0x8d,0x0c,0xef,0x32,0xcf,0x02,0x46,0x7f,0xe6,0x15,0xdd,0xe7,0xdc,0x8f,0x00,0x60,0x5c,0xbd,0x5b,0xc9,0x8f,0x78,0xd6,0x8c,0x8b,0x65,0x00,0x11,0x55,0xf3,0x11,0xfd,0x42,0x51,0x21,0x3e,0x2f,0x56,0x03,0xc0,0x00,0x00,0x23,0xcd,0x6d,0x2e,0x6f,0xd4,0x87,0x51,0x9c,0x3f,0xbc,0x71,0x4e,0x02,0x85,0x7f,0x25,0x35,0xa0,0x81,0xe9,0xe9,0xf2,0x52,0x7e,0x2a,0x97,0xf6,0xbb,0x00,0xa4,0x06,0x00,0x10,0xc1,0xa4,0xac,0x44,0x7a,0x2f,0x4c,0x26,0xcb,0x4e,0x21,0x00,0x00,0x00,0x19,0xd3,0x8a,0xb1,0x45,0x77,0x8d,0x77,0x5d,0xed,0x53,0x66,0xaa,0x1f,0xf3,0xeb,0xf3,0x6e,0x01,0xf7,0x7c,0x7c,0x83,0x86,0xc0,0xd1,0x74,0x49,0x41,0xa2,0x0f,0x49,0x00,0x10,0x29,0xb3,0xe7,0x37,0x71,0x02,0x24,0xf7,0xd1,0xb9,0xb3,0x74,0x88,0x03,0x49,0x62,0x79,0xe9,0x74,0x75,0x94,0x75,0x20,0x20,0xf7,0xc7,0x29,0x46,0xe5,0x21,0xc6,0xb6,0xb8,0x65,0xae,0x30,0x6d,0x26,0x52,0xdd,0x99,0x03,0x1b,0xba,0xde,0x12,0x00,0x0f,0x1e,0x3d,0x4a,0x62,0x08,0x93,0x69,0x50,0xd5,0xcc,0x00,0x95,0x82,0x80,0x2b,0x99,0xe2,0x35,0x18,0x36,0x71,0xa4,0xf5,0xb1,0xea,0xac,0xb4,0xb8,0xa4,0x10,0x53,0x2d,0xf5,0xbd,0xca,0x1f,0xf4,0x7b,0x97,0x3f,0x71,0xd5,0x97,0x83,0x88,0x84,0x00,0x0f,0x11,0x6e,0x9d,0x8a,0xc1,0x20,0xd7,0xf4,0x52,0xfa,0xd0,0x81,0x26,0x97,0xc7,0x67,0xe2,0xd2,0x6f,0xdb,0xeb,0xa0,0x53,0x47,0xfc,0x9e,0xb4,0xc7,0x98,0x59,0x4a,0xac,0x8f,0xbc,0x5e,0x0d,0x3c,0x97,0xee,0x32,0x13,0x89,0xd4,0x7f,0xfa,0x03,0x00,0x0f,0x01,0xf5,0x29,0xf4,0x23,0xba,0x3a,0x9c,0x6c,0x9f,0xa4,0xa0,0xef,0xb1,0x34,0x64,0xcf,0x12,0x7b,0xea,0xde,0x0f,0xab,0xd8,0x65,0x57,0x39,0x4e,0x7a,0x33,0x0c,0x90,0x06,0x1e,0x08,0x3e,0x8a,0x8e,0x8d,0x55,0x0c,0x70,0x58,0x70,0x29,0x47,0x00,0x0e,0xd1,0x9f,0xb4,0xe2,0x0a,0x10,0x17,0xcc,0x8e,0x5f,0x5b,0x4d,0x4a,0x9a,0xda,0xab,0xfe,0x9d,0x07,0x49,0xbd,0x3d,0xe3,0x10,0x19,0x52,0x0b,0xba,0x68,0x5e,0xb9,0x26,0x0a,0x49,0xd1,0x37,0x90,0x00,0x02,0x19,0x1b,0x00,0xb9,0xb8,0xe5,0xe4,0x00,0x0e,0x3a,0x13,0x3e,0x48,0x69,0xca,0x24,0x91,0x1c,0x06,0x30,0x00,0x00,0x00,0x48,0x6d,0xba,0x47,0x72,0x68,0x42,0xd6,0x56,0x00,0xfe,0x14,0xf1,0x09,0xc2,0x4f,0xa9,0xf2,0x09,0xd0,0x9c,0xae,0x2e,0xa5,0xf2,0xbe,0x92,0x55,0xad,0x6a,0xb7,0x75,0x00,0x0d,0x71,0xcd,0x7a,0x14,0x26,0x00,0xb9,0x65,0x97,0xd6,0x8b,0x40,0x00,0x00,0xd2,0xe8,0x75,0x77,0xed,0x0c,0x0c,0x95,0x42,0xca,0x8c,0x1a,0x0b,0x3a,0x0c,0x5b,0x5d,0xcf,0xa6,0xf3,0xab,0xe2,0xe6,0x0d,0xb3,0x11,0x98,0x2e,0x36,0xd2,0x59,0x8e,0x00,0x0d,0x0e,0xbf,0xc0,0x57,0x36,0x84,0xfc,0x6e,0xaf,0xd9,0xe9,0x00,0x00,0x00,0x26,0x5e,0xa9,0x4d,0x91,0x5a,0x73,0x3c,0x8b,0x0b,0x3c,0x30,0xb8,0x2b,0xa1,0xa7,0xa3,0xea,0xd5,0x32,0xeb,0x0b,0xf1,0x44,0xb9,0x20,0x48,0xf1,0x07,0x18,0x05,0x92,0x00,0x0c,0x84,0xc8,0x2b,0x86,0xee,0x3e,0xfe,0x71,0x8f,0x02,0x47,0xdb,0x5c,0x00,0x2d,0x54,0x85,0x03,0x12,0x2a,0x96,0x25,0x71,0x83,0x42,0x00,0x0b,0x53,0x92,0x4f,0x1b,0xb8,0xbd,0xca,0xab,0xe2,0x2e,0x1d,0x64,0xf0,0xb0,0x14,0x44,0xc0,0x2e,0x64,0x00,0x0b,0xf1,0x45,0x5f,0x3b,0x7c,0xa9,0x1b,0x01,0xb0,0x4c,0x2c,0x08,0x00,0x00,0xf6,0x74,0x4f,0x7d,0xa4,0xe8,0xb9,0x93,0x0f,0x1e,0x3a,0x52,0xa3,0x87,0x2a,0x57,0xcd,0xf1,0x30,0x58,0x78,0xa2,0x0f,0xc1,0xb6,0xb9,0xc4,0x9a,0x6e,0x4b,0x31,0xbf,0x00,0x0b,0x8e,0x3d,0x23,0x15,0x19,0xe0,0xa0,0x8f,0xa0,0x0f,0x17,0x00,0x00,0x00,0x22,0x4e,0x11,0xa8,0x31,0xd2,0x43,0x3c,0xc8,0xda,0x47,0xdc,0xaf,0x7f,0x07,0x8e,0x9d,0x2b,0x37,0x16,0xa0,0xad,0x6f,0x85,0xe9,0x23,0x23,0x7a,0x19,0xb7,0xb4,0x9d,0x00,0x0b,0x3d,0xd6,0x84,0xa1,0xa8,0x7b,0x17,0xfa,0xc6,0x15,0xd8,0x48,0x00,0x00,0xed,0x1e,0x5c,0x33,0xff,0x6e,0xc3,0xff,0x17,0xa3,0x85,0x68,0x7d,0x8b,0x3c,0x40,0x0a,0xe2,0x07,0x45,0x38,0xfa,0x11,0x06,0x5f,0x7a,0x81,0xa8,0xa0,0x0b,0x30,0xd9,0x00,0x0a,0x15,0x41,0x0c,0x8e,0xbf,0x81,0x77,0x7e,0xc9,0xec,0xe0,0xdb,0x4d,0x20,0xec,0xab,0x1c,0x2a,0xff,0x00,0x59,0xe7,0x9f,0xd7,0xb9,0xb3,0x3c,0x2e,0x2e,0xa0,0xfe,0x82,0x5e,0xa7,0x53,0xd1,0x21,0xcb,0xbe,0x3e,0x0a,0xb0,0x04,0xb7,0xf4,0x5c,0x00,0x09,0xf0,0xa9,0xa7,0xd6,0x4d,0x65,0xa3,0xa7,0x55,0x88,0x75,0x37,0x38,0x4e,0x63,0x8d,0x06,0x8b,0x88,0xe8,0x09,0xfd,0xef,0x2a,0x7c,0xe1,0x14,0xc6,0x98,0x9c,0x2c,0xdd,0xc0,0xde,0x50,0xa2,0x9a,0x94,0xdd,0x84,0xfb,0x86,0x4a,0x1a,0x1b,0x63,0x00,0x09,0xa1,0x31,0xdc,0x32,0x4f,0xd4,0x70,0x8f,0xac,0x6c,0x5d,0x7c,0x80,0x00,0x45,0x7b,0xc3,0xf3,0x83,0x4c,0x0d,0xed,0xd8,0x30,0xce,0x5e,0xe6,0xf1,0xc7,0x34,0xea,0xef,0xd8,0x8f,0xc8,0xf1,0x42,0x2b,0x69,0x22,0x89,0x0f,0x15,0x75,0x2d,0x4f,0x00,0x09,0x72,0x35,0xb8,0x30,0x4d,0xaa,0x03,0xc0,0x6c,0x05,0xbb,0x00,0x00,0x00,0x72,0xb1,0xd3,0x24,0x72,0x1f,0xa2,0x9b,0x4b,0x2d,0x18,0x40,0x82,0xdc,0x96,0xd3,0xf0,0xf2,0x88,0x1f,0xe4,0x7b,0xe8,0x4f,0xe4,0x90,0x98,0xc1,0x51,0x78,0xeb,0x4e,0x00,0x09,0x64,0x89,0xb2,0xb5,0x92,0x03,0x1d,0x6b,0xad,0x64,0xbe,0x75,0xd1,0x33,0x55,0x94,0x87,0x62,0x2b,0xea,0xcd,0x53,0x26,0x97,0x20,0xf2,0xbf,0x1c,0xe9,0x24,0xc5,0xe5,0x6b,0x05,0x37,0xc3,0x5b,0x4d,0x47,0xaf,0xdc,0xc4,0x71,0x8b,0xf6,0x45,0x00,0x09,0x3f,0x2d,0x4f,0x46,0x47,0xe2,0x14,0x0a,0x96,0xcc,0x6d,0x59,0xb4,0x9f,0x37,0x22,0xce,0x29,0xa5,0x20,0x95,0x2e,0x71,0xbc,0x7d,0x98,0x35,0x31,0x38,0x3e,0x2d,0xfc,0xa6,0x4f,0x13,0x2c,0x4a,0x3a,0x15,0x92,0x1a,0x9d,0xc5,0xc7,0xe8,0x33,0x00,0x09,0x17,0xa5,0x83,0x9a,0xc2,0x26,0x59,0x0d,0xa2,0x37,0x8b,0x80,0x00,0x00,0xa3,0xfb,0xe4,0x19,0x94,0xe1,0xd4,0x29,0xd9,0xdb,0xb9,0xb0,0x6f,0x2c,0x33,0x70,0xa0,0xe3,0x40,0xaa,0xaf,0x9f,0xab,0x18,0xe6,0xbd,0x37,0x07,0xbb,0xfd,0x09,0x10,0x00,0x08,0xe9,0x0b,0x3f,0x68,0xd3,0x8a,0xc0,0xca,0x6b,0xa5,0xb0,0x00,0x00,0x00,0xf9,0xdb,0xd9,0x1e,0xc1,0x02,0x90,0x6c,0x81,0xf9,0xc6,0x30,0xf7,0x84,0x01,0x27,0x56,0xdf,0x4a,0x29,0x6d,0x2c,0x4a,0x2e,0x89,0x62,0xc9,0xc4,0xe8,0xe3,0x68,0x81,0x00,0x08,0xc7,0x1d,0x9a,0x9e,0xe6,0x23,0x2b,0x93,0x56,0xa3,0xa8,0x8d,0x8a,0x00,0x57,0x7f,0x53,0xb7,0xb8,0x94,0x01,0x10,0xcb,0x70,0x8b,0xa8,0x36,0x74,0x03,0xa2,0xed,0x47,0x0f,0x6c,0xe6,0x4b,0x6f,0x9f,0xd7,0x11,0xf2,0x30,0x19,0xe7,0xbb,0x58,0x00,0x08,0x61,0x84,0x57,0x31,0xee,0x46,0xfe,0xa2,0xcd,0xbf,0x18,0x00,0x00,0x00,0x86,0xc4,0x9b,0x9b,0x33,0x89,0xbf,0x85,0x93,0x40,0xa2,0x93,0x20,0x21,0x5c,0x10,0x18,0x2d,0x33,0x67,0xe8,0x84,0xc9,0x62,0x14,0xf8,0xbd,0xde,0xc7,0x9e,0x07,0xf3,0x00,0x08,0x59,0x1f,0x6f,0xd0,0x1f,0x84,0xfd,0x74,0xe3,0x19,0x04,0xc0,0x00,0x00,0x42,0xdd,0x30,0x8b,0xa9,0x1a,0xa2,0x25,0xb9,0xdd,0x0e,0xf1,0x5a,0x68,0xa8,0xdd,0x49,0xe2,0x94,0x0c,0x62,0x77,0xa4,0xbf,0xac,0x36,0x3e,0x1c,0x8b,0xf1,0x42,0x79,0x00,0x08,0x33,0x01,0x63,0xc4,0x3e,0xa1,0x00,0x5a,0xca,0x60,0xe9,0x1d,0x80,0x00,0x03,0x47,0x19,0x65,0x5b,0xc7,0x4e,0x7a,0x6d,0x4b,0x30,0x81,0x1b,0xdb,0xb9,0x0b,0x81,0x3c,0xfe,0xf2,0x40,0x0e,0x31,0xbd,0x6f,0xa2,0xdd,0x35,0x24,0x5f,0xea,0x4d,0x00,0x07,0xc1,0xbc,0x00,0xfb,0x3f,0x2e,0xc4,0x62,0xb9,0x92,0xae,0x80,0x03,0xe8,0x9f,0xd3,0xe7,0x08,0x0d,0x4b,0x35,0x5a,0xe2,0xf0,0x30,0x41,0x9d,0xb1,0xc1,0xe0,0xdb,0xd8,0x02,0x03,0x43,0x47,0xf8,0x50,0xe9,0x95,0x84,0x69,0xc9,0x27,0x0a,0x8b,0x00,0x07,0xbb,0xbe,0x70,0x87,0x34,0xd8,0x0b,0x4d,0x33,0x43,0x8d,0x00,0x00,0x00,0xa9,0xe8,0xc6,0xb3,0x02,0x45,0x06,0x47,0x81,0x7b,0x9f,0xae,0x0f,0x58,0xeb,0xd1,0x2e,0x05,0xfa,0x52,0x52,0xbb,0xe1,0x22,0xc5,0xf9,0x26,0xe7,0x43,0x81,0x73,0x67,0x00,0x07,0x8f,0x31,0xd7,0xaa,0x47,0xc2,0xd4,0x98,0x9d,0x3f,0xcd,0x90,0x00,0x00,0x70,0xa5,0x42,0x2d,0x48,0x46,0x93,0x1c,0xea,0x02,0x60,0x3d,0xd5,0xaf,0xb2,0xd0,0x43,0x3e,0x08,0x06,0xde,0xca,0x5e,0x83,0x2e,0xb6,0x7f,0x33,0xb5,0x77,0x7d,0x35,0x00,0x07,0x73,0x2a,0x42,0x69,0x63,0x78,0x35,0x32,0x78,0xf8,0x1f,0xef,0x6b,0xe5,0x06,0x7b,0x97,0x5e,0x64,0xf9,0x42,0x84,0x0f,0xae,0x8e,0x52,0x17,0x8e,0x81,0xb8,0xd7,0x60,0x2a,0x32,0x4d,0xc1,0xe8,0xb5,0xb9,0x60,0x81,0x43,0x94,0x25,0xeb,0x23,0x00,0x07,0x0f,0x21,0x9c,0x6b,0x52,0x88,0xb6,0xf4,0xd9,0xae,0x4a,0x08,0x00,0x00,0x5d,0xcd,0x98,0x3f,0x83,0x0b,0x02,0x58,0x0c,0x89,0x83,0xe3,0x07,0x69,0x50,0xea,0x53,0xed,0x5f,0x9a,0x35,0xff,0x82,0xbf,0x46,0x2f,0xa8,0x59,0xea,0x24,0x7a,0x77,0x00,0x06,0x4d,0x08,0x4b,0xac,0x30,0xf1,0x5f,0x6e,0x71,0xb2,0x56,0x70,0x00,0xa1,0x66,0x81,0xed,0xa0,0x45,0xd8,0x11,0xd9,0x7b,0x03,0x0c,0x97,0x0a,0xaf,0x4a,0xe2,0x4b,0xf1,0x0a,0xf5,0xa9,0xc7,0x59,0xe6,0x32,0x5c,0xa3,0x67,0x24,0x26,0xf2,0xbb,0x00,0x06,0x45,0x46,0x11,0xcd,0xf3,0x7e,0xc4,0x0f,0xf4,0xcb,0x03,0x80,0x00,0x00,0x0c,0x6d,0x2d,0xab,0x2d,0x29,0x26,0xb7,0x4b,0x21,0x2d,0x4f,0x3b,0xa3,0x49,0x5c,0x76,0x1b,0x5f,0xc9,0xca,0xce,0xb0,0x17,0xbe,0xa1,0x48,0x26,0xc7,0xa2,0x9a,0x6a,0x00,0x06,0x3f,0x50,0xc3,0x8d,0xa5,0x8d,0xd8,0x7e,0xc8,0xc5,0x1b,0x80,0x00,0x6d,0x56,0x94,0xd4,0x93,0xcc,0x31,0xc0,0x57,0x2a,0x3f,0x09,0x81,0x4a,0x33,0xbe,0x96,0xf9,0x00,0xde,0xf2,0xae,0xf5,0x51,0x4a,0xda,0x67,0x4f,0xfb,0x9c,0x4e,0x20,0x77,0x00,0x06,0x21,0xa4,0x6c,0x73,0xab,0xa9,0xf4,0x95,0xb5,0xae,0x83,0x00,0x00,0x00,0x51,0x1a,0xc4,0x37,0x30,0x54,0x3f,0x18,0xc0,0x78,0x36,0xbb,0x2f,0x61,0x03,0x2b,0x16,0xed,0xa4,0x6f,0x10,0x77,0x9c,0xa0,0xf3,0x30,0xc9,0xb6,0x63,0x88,0x10,0x60,0x00,0x06,0x05,0x6d,0x8a,0x21,0x86,0x06,0x64,0xb9,0xea,0x68,0x70,0x94,0xdb,0xa5,0xe6,0x00,0x82,0xab,0x41,0x9e,0x29,0x68,0x9e,0x6d,0x73,0xf6,0x42,0xc3,0x87,0x0b,0x10,0x79,0x8d,0xe1,0x20,0x9b,0x01,0x09,0x00,0xc6,0x22,0x87,0x57,0x7b,0xbb,0xa4,0x00,0x05,0xee,0x21,0x3f,0x6a,0x70,0xa9,0xd5,0xc4,0x89,0x50,0xf0,0x80,0x00,0x00,0x64,0x54,0xec,0xac,0x25,0x1f,0xc3,0x98,0xb4,0xc2,0x0b,0xbf,0xf5,0x36,0x85,0xd6,0x6e,0x16,0x8e,0xac,0x20,0xe8,0x14,0xd6,0xfb,0x4a,0x16,0xf9,0x2e,0x00,0x07,0x8f,0x00,0x05,0xdf,0x29,0x01,0x57,0x70,0x71,0x46,0x75,0x00,0xfc,0x39,0x2d,0xb7,0xcd,0xd3,0x23,0x85,0xae,0x45,0xd6,0xc1,0x3a,0xee,0xb9,0x18,0x6f,0xc8,0x96,0x80,0xc8,0x66,0x7f,0xe7,0x43,0x1b,0xfe,0xd7,0x64,0xa1,0x36,0x7e,0x9e,0x00,0xc9,0x27,0xdc,0x00,0x05,0xd0,0xe8,0x2b,0x28,0x27,0xad,0x50,0xd7,0xc1,0x13,0x35,0x2c,0x21,0x5a,0x6d,0x30,0xe7,0x8d,0xb3,0x82,0x90,0x3f,0x20,0x67,0x05,0x7c,0x2b,0x27,0xd6,0xb8,0x1e,0xbe,0x72,0x94,0x89,0x07,0x13,0xad,0x82,0xd7,0xe3,0xab,0x33,0x87,0xdf,0xc6,0x00,0x05,0xc7,0x3c,0x66,0x3d,0x31,0x4e,0xa6,0x9b,0x87,0xe5,0x6f,0x00,0x00,0x00,0xa1,0xb3,0xb1,0xdf,0xd2,0x5a,0xc4,0x6a,0xd5,0x1b,0x9c,0x8d,0x3d,0xe9,0x56,0x3c,0x12,0x85,0xed,0x7f,0x7e,0xc5,0x50,0x0c,0x9f,0x22,0x16,0x68,0x8d,0xa0,0xaa,0xdf,0x00,0x05,0x78,0xe8,0xf5,0x6a,0xce,0xb2,0x28,0xda,0x08,0x98,0xe7,0xd3,0xb1,0x16,0x99,0xf2,0x78,0xeb,0x4f,0x1a,0xa0,0x99,0x01,0x7f,0xd3,0x5b,0xeb,0x44,0x4d,0x72,0x19,0x88,0xa6,0x00,0xfb,0x87,0x07,0x3c,0x5e,0xcc,0xb3,0x58,0x5d,0x65,0x39,0xce,0x00,0x05,0x71,0x4d,0x70,0xcf,0x51,0x54,0x13,0x6e,0xaa,0x96,0xa2,0xec,0x20,0x49,0x95,0x7d,0x5b,0xa3,0x9c,0x2a,0xd7,0xf2,0xcd,0xca,0xf9,0xd7,0xa1,0xd9,0x72,0x7f,0x43,0xf8,0xc6,0xbd,0x21,0x32,0xc8,0x76,0x8e,0x60,0x07,0x65,0x52,0x80,0xc0,0x5b,0x00,0x05,0x60,0xef,0x14,0xdb,0x41,0x86,0xda,0x0d,0x89,0xc5,0xc3,0xc0,0x00,0x00,0x19,0x36,0xd9,0x81,0xd1,0x57,0xd7,0xcc,0x63,0x9f,0x21,0x89,0x2b,0x24,0x2c,0x21,0xc0,0x4f,0x0c,0xe6,0x61,0xe8,0x86,0xe7,0x5a,0xcb,0xea,0x16,0x87,0x6c,0x62,0x62,0x00,0x05,0x21,0x8c,0x96,0x81,0x71,0x4b,0x04,0xb5,0x35,0xb5,0x21,0x8f,0x8b,0xbc,0x34,0x8e,0xc6,0x0f,0xd0,0xa6,0x7f,0x81,0x4e,0x5d,0x2e,0xca,0x53,0xb3,0x6c,0x36,0x6e,0xcd,0xf9,0x69,0xec,0x2c,0x64,0x63,0xd6,0x58,0x60,0x5e,0x6a,0x0d,0xd1,0xdf,0x00,0x04,0xfe,0xf6,0xe7,0x94,0x53,0xba,0xca,0xd9,0x31,0xcc,0xc8,0x10,0x00,0x00,0x86,0x72,0x72,0x6e,0x69,0x19,0x92,0x6c,0xfa,0x36,0x43,0xc0,0xfb,0xd5,0x5c,0x04,0xbe,0xa7,0x5e,0x45,0xbe,0x01,0x8f,0x88,0x9d,0xc3,0x04,0x91,0x5d,0xe2,0xe7,0xf4,0x00,0x04,0xdf,0xc9,0xec,0x47,0x18,0x55,0x71,0xfd,0x53,0x97,0x3e,0x65,0xc1,0xf0,0xe0,0x15,0x97,0x35,0x85,0xda,0x88,0xaf,0xa6,0x06,0x7f,0x31,0x0e,0x6b,0xcf,0x81,0xf3,0x30,0x45,0x02,0x77,0x4d,0xd5,0x51,0x77,0x88,0xe2,0x6d,0xab,0x3f,0x97,0xff,0x00,0x04,0xd0,0x0b,0x9b,0x72,0x15,0x0d,0x89,0x22,0x8e,0x2d,0x7b,0x80,0x00,0x00,0x15,0xf9,0x89,0xa3,0x9b,0x6d,0xbb,0x39,0x64,0xb6,0xfd,0xec,0xaf,0xf3,0xb9,0x03,0x4c,0x6f,0x90,0xa4,0x3e,0xd4,0x7c,0x2d,0x98,0x1d,0x8b,0xd7,0x82,0xaf,0x0c,0xf1,0x00,0x04,0xc5,0x45,0xa6,0xcf,0x5c,0xdd,0xe8,0x12,0xf0,0x3c,0x07,0xc0,0x00,0x00,0xdc,0x64,0x60,0x29,0x56,0x1a,0xc1,0x5c,0xe6,0x32,0x11,0x0a,0x69,0x3e,0xf3,0x2f,0x98,0xae,0xf9,0x91,0x02,0x06,0xca,0x06,0x3b,0xd0,0x09,0x47,0x69,0xc4,0x99,0x3c,0x00,0x04,0xb0,0x8c,0x35,0x6b,0xaa,0x8d,0xa5,0xfd,0xcf,0x33,0x80,0x00,0x00,0x00,0x97,0x5b,0x62,0xb8,0xe7,0xf8,0x82,0x67,0xae,0xa7,0x76,0x77,0x0b,0x72,0x93,0xac,0x63,0x6e,0x38,0x1f,0x7a,0xa6,0x96,0x76,0x96,0x90,0x89,0x28,0x5f,0xf3,0x14,0xb4,0x00,0x04,0x87,0xba,0xe2,0xe6,0x64,0x89,0xea,0xa5,0xd3,0xe6,0x7d,0x8a,0x1e,0xee,0xc7,0xc9,0x72,0x23,0xd6,0x27,0x71,0x3c,0x93,0xe0,0xf7,0x79,0x9d,0x05,0x9b,0xc2,0xb3,0xfe,0xc0,0x3d,0x62,0x72,0xe2,0x41,0xdf,0x63,0xd4,0xa2,0x8a,0x8e,0xe7,0x21,0x00,0x04,0x70,0x19,0x03,0xbc,0x56,0x26,0x5f,0x4b,0xc3,0x19,0xe7,0x13,0xf4,0x00,0xd4,0xbb,0xfa,0x50,0x64,0x9d,0x80,0xe5,0xf6,0x3f,0xc3,0x96,0xc6,0xf4,0xcf,0x63,0x21,0xca,0xbd,0x7c,0x14,0x80,0xe9,0x64,0xc2,0x70,0x1d,0x56,0xaa,0xfe,0xb5,0xe3,0x00,0x04,0x55,0x68,0xe7,0x43,0xc7,0x5d,0xde,0x03,0xcb,0xb2,0x89,0x19,0x41,0x2a,0x5d,0x5e,0xe2,0xd0,0x1e,0x01,0x7d,0xce,0x79,0x3f,0xd1,0x4c,0x96,0x49,0xf4,0x6b,0xcf,0x8e,0x8b,0xd8,0xdd,0xbf,0x80,0xbf,0x32,0xf6,0xeb,0x9d,0xa9,0xfe,0x6b,0x06,0x00,0x04,0x36,0xd5,0xbc,0x1f,0x4c,0xa9,0x1b,0xd2,0xfd,0x38,0xa0,0x00,0x00,0x00,0xc0,0x2b,0xbf,0x87,0xdc,0x9c,0xcc,0xe6,0xa4,0x76,0x45,0xb6,0xeb,0x78,0x9c,0xe5,0x4c,0x8a,0x89,0x48,0xfc,0xef,0x90,0xe0,0x80,0x08,0x44,0x72,0xe5,0xdb,0x76,0x51,0x00,0x04,0x31,0x61,0x69,0xb6,0x81,0x4b,0x46,0xee,0x6b,0x93,0xe0,0xf8,0x00,0xc8,0x8c,0xbe,0x44,0x9f,0x83,0x8d,0xdb,0xa1,0x29,0x33,0x19,0xf7,0x6b,0xbc,0xcb,0xb9,0x1a,0x75,0x58,0x3f,0x91,0x08,0xda,0xfd,0xb7,0xc7,0x8b,0x09,0xa1,0xbb,0x59,0x65,0x00,0x04,0x2e,0x9d,0x0f,0x6d,0x70,0x36,0x8f,0x2d,0x24,0x53,0xb0,0x00,0x00,0x00,0x4d,0x92,0xc0,0x3f,0x18,0x89,0x68,0xc0,0x3c,0x9a,0x48,0x86,0x5f,0x7a,0xdf,0x8c,0x9b,0x02,0xad,0x66,0x14,0x1a,0xb3,0x0e,0x90,0x11,0x40,0xff,0xfd,0x80,0xaf,0xdc,0x00,0x04,0x2e,0x12,0x93,0x6d,0xe8,0x88,0x00,0x6f,0x6a,0x05,0x1a,0x00,0x00,0x00,0xd0,0x88,0xc6,0x5b,0x04,0x79,0x64,0x3f,0x3d,0x6c,0x8c,0x92,0x8b,0x32,0x49,0x9c,0xd5,0xdb,0xe1,0xab,0x50,0xf8,0x36,0xb3,0xa3,0xbb,0xe8,0xb9,0x65,0x4a,0x03,0x52,0x00,0x04,0x2a,0x28,0xef,0x71,0x65,0xcf,0x58,0x10,0xfd,0xbf,0x9c,0x00,0x00,0x00,0xdb,0x1f,0xd9,0xb2,0xbf,0xd4,0xcb,0x2a,0xaa,0xd9,0xe7,0x3c,0xb4,0x4c,0x76,0xe3,0x58,0x32,0x9a,0x11,0xa4,0x09,0xb4,0x1c,0xf0,0xc4,0x16,0x40,0x6d,0xf7,0xcc,0x9c,0x00,0x04,0x1d,0xab,0x65,0x51,0x2f,0x61,0xf8,0xf1,0xd0,0x93,0x12,0x08,0x00,0x00,0x61,0xb1,0xe8,0x43,0xe3,0x13,0x37,0x9e,0x75,0x41,0x54,0x70,0x23,0xd2,0x3b,0x8b,0xcd,0xeb,0x7a,0x73,0x1e,0x81,0x1b,0xf1,0x3c,0xd3,0xb0,0x4d,0x62,0xc6,0xa4,0xe2,0x00,0x04,0x16,0x1f,0x6c,0xd4,0xb8,0x08,0xb5,0x68,0x10,0xc6,0x98,0x00,0x00,0x00,0x17,0x93,0xe5,0x9c,0x41,0xd1,0x9b,0x79,0xb6,0x61,0x34,0xe7,0x61,0x29,0xd5,0x34,0x46,0xfd,0x37,0x94,0x88,0x25,0x63,0x78,0x84,0x37,0x48,0x2e,0x35,0x6f,0x0a,0x87,0x00,0x04,0x01,0x91,0x17,0xad,0xa8,0x39,0x5a,0xf6,0x72,0x1a,0x36,0x05,0x97,0xcd, 0x00};
	size_t rai_bootstrap_weights_size = sizeof(rai_bootstrap_weights) - 1;
}
